#version: 0.2
e n
e r
i n
Ġ a
Ġ t
Ġ d
c h
e s
o n
Ġt h
u n
i t
i s
Ġ s
Ġ w
a t
i e
o r
a n
Ġth e
r e
Ġ b
Ġ o
a l
a r
Ġ in
Ġ f
. "
i ch
Ġ m
t e
i on
Ġ e
Ġa n
u r
a s
l e
Ġ p
Ġ c
Ġ un
Ġ h
u s
en t
g e
Ġo f
r o
Ã ¼
Ġ n
Ġ S
Ġ v
in g
un g
Ġan d
Ġt o
Ã ¤
l l
e d
Ġd ie
o m
Ġd er
Ġun d
." ,
i g
s t
i c
Ġb e
Ġ A
Ġ is
Ġ E
Ġe in
i r
Ġ z
i m
Ġ g
e l
Ġ M
Ġ P
u t
r a
t er
Ġ B
e m
.", "
i l
t en
o l
at ion
d er
e it
e t
Ġ l
a m
d en
Ġ re
Ġ I
h r
i es
u m
Ġ F
o p
Ġ G
c t
s ch
Ġ K
u l
Ġ k
u f
Ã ¶
b er
i v
l ich
d e
Ġ R
Ġ C
Ġf or
. ,
a b
o t
Ġ T
Ã¼ r
is ch
Ġ V
Ġ H
i er
ich t
g en
Ġ D
Ġd as
Ġ on
Ġz u
Ġ W
er e
Ġd en
l y
es s
es t
Ġth at
o s
h e
an d
i d
Ġ L
c e
om m
er s
e in
Ġp ro
Ġa l
o w
Ġw h
a ch
Ġv on
Ġ r
or t
Ġ ge
u ch
Ã Ł
Ġ im
Ġs t
it h
Ġ y
Ġ U
Ġw ir
k t
i f
Ġc on
Ġis t
Ġv er
Ġ er
v er
Ġw ith
Ġa uf
Ġw e
Ġf Ã¼r
ur op
a y
i ll
Ġd es
Ġ it
v e
Ġm it
a d
Ġa re
t s
â Ģ
in d
Ġa s
c k
Ġs o
Ġd e
Ġn e
is s
Ġy o
Ġ 1
Ġ N
Ġd ies
t r
en d
a f
p p
ĠE urop
at e
m ent
i k
Ġ Z
Ġ (
Ġs e
q u
T he
t h
ung en
l a
0 0
isch en
Ġ 2
n en
m en
i b
Ġal s
ĠS t
Ġein e
a k
Ġe x
ĠV er
n e
f or
Ġd em
Ġth is
it y
ĠI n
Ġh a
an t
i en
iv e
i al
a h
is t
Ġ or
Ġ j
ar t
Ġn icht
p e
un d
Ġw er
u g
Ġc o
Ġn ot
" "
an n
Ã¼ ber
s te
ĠU n
Ġs ich
Ġa ll
Ġ le
Ã¤ n
u b
f f
Ġwer den
te l
Ġ -
Ġ J
w e
Ġb y
Ġha ve
Ġdas s
ĠR e
ro m
a g
ĠS ie
ig en
Ġa t
ig h
us t
ĠA n
Ġ es
as s
en s
Ġa us
a in
al l
ul d
Ġyo u
u p
s p
Ġw ill
o d
Ġa b
Ġc om
Ġun s
ie l
er n
Ġ Ã¼ber
a us
u re
Ġ i
Ġs h
Ġm e
z e
ion s
a ge
Ġwh ich
., "
omm iss
te d
Ġw as
Ġa uch
Ġ O
r an
b en
l ie
h en
D ie
ĠP r
Ġf rom
a hr
h al
ung s
d u
o ch
ĠEurop e
ar d
Ġ um
ĠS ch
o uld
Ġs ind
Ġ us
ter n
Ġ ch
Ġs ch
ommiss ion
Ġ âĢ
id ent
I n
o g
Ġp r
ĠP ro
Ġ ent
f er
Ġv or
Ġwir d
us s
es ch
Ġh as
u e
Ġh ab
sch af
i p
i z
m er
f t
p ort
in e
Ġw or
T h
g r
Ã¶ n
s s
u d
Ġr es
Ġ en
an g
ĠE n
o c
ll en
o us
isch e
ic k
o k
Ġw ie
Ġd a
en n
as t
Ã¤ t
ĠB e
o ur
ĠP ar
Ġh e
ur ch
Ġc an
m e
Ġm an
is e
ab le
et z
er r
for m
Ġa m
i ge
i re
k eit
Ġh at
Ġs ein
Ġ ich
a p
o st
p r
Ġo der
er t
am ent
Ġo ur
i a
or e
ĠA r
b e
o tel
c c
er v
Ġcom p
Ġz ur
ul t
b eit
Ġals o
ation s
ĠEurope an
ĠE r
Ġhab en
Ġs ie
ation al
ct ion
h er
ic al
h eit
it ion
Ġa d
es e
lich en
ĠA us
ic e
l o
at ed
a re
o ut
der n
Ġbe i
Ġd o
. .
Ġein er
Ġk Ã¶n
om e
ol it
s e
r it
Ġ ""
r u
at en
t z
h l
th er
ar k
or d
f Ã¼
ier en
p t
e ct
Ġun ter
Ġ Ã
Ġ2 00
is h
Ã¼ n
Ġn ach
a c
Ġ qu
schaf t
Ġein en
h t
ĠG e
m s
ig n
' s
Ġp art
Ã¤ r
te t
ĠPar l
ier t
Ġyo ur
el t
igh t
Ġit s
ĠUn ion
v el
at es
ĠM it
o un
ak e
Ġt e
t ra
e ar
Ġre g
it e
Ġd urch
Ġg ro
an k
i an
a u
g er
y ste
f en
Ġs u
Ġs p
Ġb ut
ar y
em ber
Ġw ur
Ġa g
Ġg o
Ġ ro
i de
c ial
o ll
ĠkÃ¶n nen
Ġth ere
lich e
ĠB er
g t
p er
c on
Ã¤ s
W e
Ġa pp
os e
h re
Ġd is
Ã¶ r
ĠE in
an z
Ġs te
Ġd ar
ch t
Ġt ra
ĠE U
Ġw ar
u al
ĠF ra
D as
ch en
ĠC ommission
ĠV or
c l
im e
Ġw ould
Ġs pe
er en
Ġm Ã¶
Ġ 3
an ce
Ġm ore
t w
i le
a il
o v
Ġz um
ĠA b
Ġthe ir
Ġein em
Ġ1 9
omm en
Ġbe en
m p
Ġg en
ĠâĢ ĵ
Ġb es
re at
Ġcon t
g lich
im m
u te
as e
âĢ Ļ
u ÃŁ
on g
am e
a ct
ch n
ch te
ĠEurop Ã¤
Ġa r
I ch
il d
ut z
g ra
Ġk ann
Ġf in
Ã¼ ck
b le
os s
a ck
ch e
Ġdies e
Ġon e
Ã¼ ss
Ġa cc
on t
Ġn ur
on e
ug h
ĠW e
ent s
Ġco un
Ġp er
ĠT e
Ġc omm
Â ł
ĠG r
st en
g es
g an
h n
Ġsh ould
Ġal le
Ġbe t
ah l
p l
Ġp l
Ġwor k
w er
ut ion
ik e
ĠD e
Ġne w
ier ung
ge b
ein e
Ġ up
ĠL e
Ġ ,
ĠS p
Ġc l
o b
ĠUn ter
W ir
Th is
z u
el y
ĠC h
a uf
l and
h men
re e
hr en
kt ion
I t
Ã¤s ident
Ġo ut
t o
Ġdies er
a v
ig keit
ĠJ ahr
Ġo b
r ie
n er
ĠH otel
l d
l ic
ol le
Ġj ed
on s
re ich
Ġp re
Ġcoun tr
ing s
Ġin d
Ġver y
Ġm ust
Ġin ter
k e
Ġz w
Ġwh o
b ar
Ġo ther
ĠK ommission
Ġda ÃŁ
Ġn och
Ġpro du
ĠPr es
it ies
form ation
Ã¤ hr
Ġm a
Ġe v
Ġthe y
m it
Ġp e
in k
ĠM r
Ġne ed
Ġw eit
gra m
c es
p ro
ĠH err
w o
or s
Ġwur de
at er
ment s
te ll
D er
Ġn o
Ġb er
sch en
Ġme hr
Ġso ll
Ġin tern
Ġon ly
Ġy ear
Ġf e
Ġcon s
Ġbe c
Ġsu pp
ge l
Ġst r
Ġl ike
ĠA uf
Ġa ber
p le
ol og
o in
yste m
g lie
Ġt ime
Ġab out
Ġw enn
Ã¼ss en
Ġp olit
te il
f e
p os
ĠPr Ã¤sident
ent r
E s
ib le
Ġan y
ĠS e
ĠPres ident
i ous
D ies
ass en
c ed
u en
an ge
le ich
Ġpro v
Ġg es
Ġse hr
Ġ 5
vel op
x t
Ġm Ã¼ssen
er m
l in
Ġt ran
al ly
it Ã¤t
en z
j ect
Ġuns er
al t
Ġw o
n ah
Ġe ff
c ess
Ġ 4
Ġs ow
h nen
ĠRe g
Ġb is
i ament
an s
Ġ ra
Ã¼ tz
ar beit
on der
Ġth ese
i ent
am men
ĠParl ament
r at
ĠAr beit
Ġre c
Ġs erv
Ġs ol
i o
Ġd ire
Ġof f
ul ar
for e
at z
ow n
Ġv ie
f ahr
Ġh in
ie d
le d
ib t
il ity
Ġim port
us ammen
ĠMit glie
at ive
) ,
al s
Ġdies em
st it
Ã¤ l
p h
Ġt r
ers on
i der
r ing
ir st
op le
aus e
ur es
ĠM ember
a aten
ÃŁ en
ĠM en
ig t
Ġge gen
Ġde velop
Ġ if
c y
is m
Ġs uch
hal ten
Ġl a
f ol
w end
Ġre port
f l
" ,
Ã¤n d
Ġi hre
o ok
ay s
Ġa ct
ĠEuropÃ¤ ischen
un den
w n
sch e
Ġp ol
Ġg r
ĠA l
ig er
iv en
etz t
Ġs ub
ĠT h
ate g
d ition
k s
if ic
Ġre l
Ġin s
Ġm y
Ġo ver
al e
it u
w or
ne hmen
ĠZ eit
Ġin to
Ġpe ople
Ġw ere
ĠM a
ĠF or
Ġi hr
ĠT he
fÃ¼ hr
k te
st r
Ġwe ll
ic es
c re
Ġ2 0
i den
ir t
Ġge m
Ġintern ational
Ġb est
er g
k en
ĠParl iament
Ã ©
Ġs ome
U n
b s
em ent
Ġv iel
ĠmÃ¶ chte
Ġwh at
Ġus e
l ung
o u
ach t
c il
en den
Ġin v
is ten
con om
ľ ber
en e
Ġd if
ĠSt ates
Ġh ier
Ġm ark
ar ge
Ġs a
f r
Ġh igh
A n
ich er
ĠMitglie d
Ġh er
urop Ã¤
us tr
Ġein es
am en
Ġk n
ver y
re i
ĠM ar
Ġh otel
ĠC oun
or y
Ġb ed
u ll
Ġcountr ies
Ġf irst
Ġl oc
Ġth an
Ġge w
Ġin cl
ent ion
Ġm ost
Ġv om
olit ik
z eit
Ġh el
Ġw icht
Ġde c
Ġwh en
Ġh is
at ing
it te
Ġl ie
Ġpart ic
es ent
ie t
pe ct
Ġund er
Ġv ers
a ce
Ġthe m
ĠO r
in n
ard s
ag es
l es
ĠCoun cil
Ġd am
it z
Ġj ust
et t
Ġpol ic
s icht
Ġsow ie
Ġw el
at t
ĠMen schen
on d
Ġe le
ĠEn tw
Ġn ow
Ġag ain
Ġe uropÃ¤
ab e
ĠU m
Ġsupp ort
Ã¤n der
t re
ĠK on
Ġdies es
at s
Ġg u
Ġb as
e ver
Ġimport ant
l Ã¤
igh ts
Ġm ake
Ã¤ ch
Ġa ut
we en
ĠBer icht
el s
h o
Ġp la
hal t
Ġg ibt
ĠÃ ľber
ĠL and
Ġe conom
Ġman y
u es
k l
Ġh ow
ess en
Ġro om
k ommen
Ġbet ween
st Ã¼tz
Ġas s
f in
h and
j e
ot h
Ġpro pos
Ġre qu
ĠM e
Ġm o
Ġf r
hal b
an y
f ter
Ġte chn
iss en
Ġ Q
iv es
b st
ig ung
Ġp oss
Ã¶ s
ur al
lie ÃŁ
Ġbec ause
en ce
st aaten
w are
Ġzw ischen
ĠC omm
ter s
Ġle g
d r
Ġt ake
Ġber eit
Ġf re
le gen
m al
Ã¶ glich
z ie
Ġk on
Ġwor ld
ub lic
Ġmark et
u er
Ġp os
o te
ĠEntw ick
ĠVer b
f ul
ar m
Ġc re
Ġ 6
ĠB ed
Ġm uss
Ġ '
oin t
c ted
ro ugh
ble m
Ġf o
o ff
w eit
z ial
Ġf ind
at h
m in
Ġs el
ic t
ĠF l
am p
le ar
h Ã¶r
Ġuns ere
Ġs on
Ġo p
Ġn ational
Ġp ar
oun t
d em
âĢ ľ
Ġwh ere
Ġk eine
Ġgo od
ĠN e
Ġm in
d it
al ity
om p
ĠP l
n is
A l
Ġg reat
ra g
Ġh and
Ġb ie
ver n
Ġn at
Ġa v
Ġt wo
esch Ã¤
Ġin formation
ĠS tr
ur n
ur ing
Ġe mp
ra uch
ĠU S
ach en
ĠG es
ĠI hnen
ĠIn tern
ĠEn t
Ġre m
i um
S ie
Ġe very
Ã¶ ff
Ġein z
Ġver b
Ġma de
Ġh ad
Ġyear s
ÃŁ e
Ġcon c
ĠM in
a ut
Ġand eren
st and
s el
am il
ro l
h m
Ġm ein
ĠPro du
un kt
Ġev en
Ġ end
ĠAr t
sch ie
a ir
la ub
Ġth rough
f ort
Ġw ay
ce pt
B e
Ġis s
ĠGr und
Ġs ystem
ge ben
Ġth ose
Ġprodu ct
Ġge t
is ion
isch er
ch ten
for der
Ġse e
ĠMitglied staaten
ess ion
in a
gen d
ere ich
Ġs c
Ã¤l t
g ung
Ġweit er
is ter
ste ll
Ġan ge
l ish
ur r
ow er
w s
ĠâĢ ŀ
ĠS o
ĠI hre
im mer
Ġ19 9
y s
we ise
Ġim mer
la g
", "
gan is
.. .
ĠÃ Ħ
d ay
ĠZ usammen
Ġpolic y
Ġor der
ow s
Ġm ay
ere in
Ġt ak
ĠEurop a
uÃŁ er
l ick
Ġdis c
Ġdire ct
um ent
um an
sp r
Ġd ann
st er
h ne
Ġr ight
Ġa c
un ity
itu ation
âĢ Ŀ
r if
I f
Ġbe ing
ĠR at
ĠVor sch
iv ers
it al
Ġf act
all s
Ġbes te
Ġn um
it ed
Ġbe g
ch ts
is en
Ġr est
Ġk e
Ġ 7
1 0
Ġ .
00 0
er ation
I m
Ġbe lie
Ġpartic ular
Ġapp ro
Ġwie der
Ġdies en
nah men
Ġc ar
Ġdif fer
Ġdam it
c om
Ġc ent
n ung
ĠF r
g est
Ġco ur
Ġg er
ion en
i or
it t
ĠH aus
Ġtran s
Ġ1 0
Ġz we
v or
Ġincl ud
Ġwur den
Ġ 8
Ġg anz
ĠB ereich
Ġo wn
Ġg esch
p art
a ur
b al
Ġ [
Ġf Ã¼
ein s
Ġpro cess
iss e
icher heit
o ugh
r y
Ġres p
a de
in ess
el n
ad t
Ġd el
Ġkn ow
ge t
ĠW elt
Ġm on
in nen
re ad
ze ich
at ter
ous e
tra g
ĠD ie
ol d
Ã¤n dern
gram m
Ġb us
el le
stit ution
Ġare a
E in
Ġqu est
l er
Ġm ain
W enn
h in
a z
ĠâĢ ľ
o y
Ġb u
schie den
Ġp h
Ġk ein
it Ã¤
z en
Ġunser er
ĠG ro
Th ere
o ol
Ġag re
al k
Y ou
re chen
ro und
Ġre al
ĠH and
i x
Ġhel p
Ġh ere
Ġhab e
schaf ts
Ġson dern
Ġs m
ĠGe b
et h
p iel
Ġst and
ur s
Ġa fter
Ġde b
Ġcomp le
Ġsein e
le g
Ġjed och
Ġpolit ical
r es
est s
Ġfor m
in ce
g esch
te gr
ĠH e
eit e
Ġex p
ru ck
M r
Ġp ublic
Ġpla ce
el d
Ġi de
Ġin cre
Ġg ut
a x
ĠEuropÃ¤ ische
m b
Ġconc ern
Ġpro te
mit tel
Ġposs ible
ĠI hr
? ,
en de
is tr
v ed
Ġs ame
er k
Ġ 9
ĠE x
ent ly
ĠB Ã¼r
Ġs im
kt iv
Ġaus ge
Ġc lear
Ġe tw
ĠF in
ir on
Ġw Ã¼r
Ġs er
b ens
F or
at a
Ã¶glich keit
sch lieÃŁ
ier te
in es
Ġne ue
Ġco uld
er al
Ġh uman
t al
ten s
ĠIn ter
Ġw ant
Ġhe ute
Ġbe f
Ġd r
f ach
ĠB es
l ine
ĠG em
ĠIn formation
Ġnum ber
Ġcont in
la gen
Ġs ay
A s
n der
Ġof fer
Ġc urr
Ġeconom ic
v en
Ġp erson
Ġg leich
Ġdo es
Ġ est
Ġdevelop ment
Ġth en
Ġo pp
ert ain
is k
Ġwith in
Ġeff ect
us e
ĠB ar
Ġw en
ÃŁ nahmen
it i
tr Ã¤
Ġr ights
Dies e
an ts
ĠB r
e p
ost en
tell t
ra ft
ur o
ĠUnter nehmen
ĠK olle
Ġbereit s
ĠTe il
ic s
Ġav ail
Ġtran sp
Ġex am
Ġf est
y p
Ġsel bst
M it
Ġagain st
Ã¤ hl
al en
Ġo hne
h ip
a up
Ġm uch
Ġm ich
H err
Ġf und
m a
ĠIn d
an der
Ġb oth
b es
Ġus ed
Ġv al
Ġv is
la ge
ĠÃĦ nder
ĠEntwick lung
Ġpro f
ic ult
Ġthere fore
Ġl ang
W h
Ġihr er
Ġwicht ig
lich er
lo bal
ut ions
st ru
Ġs ur
Ġle vel
ĠSch l
ĠF re
Ġsoll te
o ck
Ġs ign
r Ã¤
f ern
lo y
Ġv ar
Âł Âł
Ġh ist
ier ten
er ung
qu e
Ġreg ion
s etz
if e
Ġne uen
ĠeuropÃ¤ ischen
v iron
Ġm ed
ft ware
Ġe qu
ust om
d s
ul ation
ĠS te
Ġb ring
Ġp ra
ĠF ran
iv id
Ġf un
st Ã¤nd
Ġ1 5
ĠC on
Ġpl ay
af f
u x
Ġf ull
Ã¤ re
ĠJahr en
en g
s atz
Ġand ere
Ġc r
Ġprov id
e ut
Ġso cial
Ġb o
reich en
ĠR icht
ĠG erm
ĠH er
Ġcountr y
ur g
Ã¶ff ent
fahr en
ical ly
age ment
Ġzwe i
w ay
Ġe igen
n et
itte e
Ã¶ ÃŁ
Ġb re
Ġvie w
w ert
Ġcon f
Ġden n
Ġth ink
it s
eit en
Ġfin an
Ġgro up
ĠV ers
Ġwith out
Ġle tz
Ġl ast
Ġp oint
Ġst ill
w ick
viron ment
E r
Ġex per
wor k
et s
tr ib
ich te
ke hr
Ã¤n g
un der
Ġme as
Ġ ens
Ġden en
imm t
Ġ Y
ĠP re
c ur
o ver
w ir
b r
Ġsoll ten
Ġo per
iv er
Ġcons ider
S t
p ar
Ġad v
ess e
Ġdiffer ent
Ġserv ices
ĠFra u
Ġfin den
Ġl ong
at or
Ġacc ess
g ar
ĠS icherheit
Ġgem eins
ff en
nah me
Ġpr iv
ĠmÃ¶ glich
ĠN ach
Ġm od
ĠFra ge
f ra
Ġo pt
l im
m an
i ze
entr al
lich keit
E R
es en
is ts
w ort
ĠA s
Ġver schieden
o hl
Ġspe c
onder e
Ġ ers
h or
Ã¤hr end
ĠB et
n ess
Ġd own
ation en
ze ug
Ġ1 8
Ġgo vern
Ġat t
Ġf ree
oll ow
Ġpr in
ĠM on
Ġavail able
Ġc ap
Ġge l
r icht
op e
ĠW irt
H ow
ak ing
Ġrequ ire
w ar
Ġab le
Ġunter stÃ¼tz
Ġb ack
ĠBÃ¼r ger
ut ure
h ol
u de
Ġind ustr
or te
Ġ1 2
ib ility
rit t
a kt
Ġbie tet
Ġk le
read y
ĠD aten
z ahl
is ed
ur ther
p f
ab ility
i ÃŁ
Ġbus iness
Ġspe cial
al th
at ur
t ing
k un
Ġda zu
v ers
y n
ien ce
yste ms
ĠH in
ĠZ u
Ġsm all
Ġbe fore
ge m
Ġl ook
ĠP erson
Ġvie le
is piel
Ġlie gt
ĠK ont
af Ã¼r
Ġall en
Ġm achen
ĠF e
Ġc ustom
pp en
ien st
Ġwe il
Ġb en
Ġp ers
Ġal ready
l oss
ĠP art
Ġf uture
Ġg est
Ġall er
Ġbelie ve
ab en
ah men
Ġc or
Ġz e
un e
der s
in s
w ard
ĠK ommiss
O n
Ġbe k
Ġa ir
te m
ah re
S o
pr ess
il t
2 00
kt ur
as ed
ct or
con d
ĠMit tel
Ġs om
ct ions
Ġh al
Ġsein er
] ]
! ,
z ug
v es
ĠI s
A ll
Ġcour se
ĠkÃ¶n n
Ġdar auf
Ġop en
Ġto day
gram me
ann t
an te
k ten
Ġdes ign
ese ll
Ġpro ject
j or
a gen
ism us
Ġs et
w elt
Ġto o
Ġj etzt
Ã¤ h
Ġin st
ĠM Ã¶glichkeit
v ing
Ġc ann
Ã¤ ÃŁ
Ġproduct s
ĠA m
Ġserv ice
Ġe t
ah er
r on
Ġgr Ã¶ÃŁ
Ġe ing
ĠSt and
ic a
Ġen vironment
om en
ĠA ut
ĠTh em
ĠFin anz
Ġf l
it iz
Ġresp ons
h Ã¤lt
in ation
c r
Ġcann ot
Ġf ac
Ġc ertain
ĠR ahmen
n isse
ll t
z us
cur ity
c ome
m ar
r en
Ġd ata
Ġge ht
Ġge b
ten d
ot her
Ġpre v
Ã¶ l
ater ial
Ġsch on
Ġein fach
Ġm ir
ĠMa ÃŁnahmen
le ase
ol ution
ĠL age
ok rat
Ġf ollow
Ġre du
Ġf ra
Ġb ro
at ely
Ġc ase
ch ie
Ġb in
op eration
ĠT ra
Ġind ivid
2 0
l os
iv ing
Ġne g
c o
Ġin t
Ġoff ers
ĠZ iel
Ġein ige
ol id
ar s
Ġd afÃ¼r
kl Ã¤r
Ġreg ard
Ġp ut
ĠV erein
Ġe as
t ain
re d
or n
E N
abe i
Ġquest ion
Ġim pro
ĠInformation en
ĠRe chts
ra ph
af fen
Ġs eit
ĠM ed
Ġv oll
Ġ &
ent ial
Ã¤t z
ĠGem ein
in al
Th at
cc ess
Ġar t
Ġt er
i ber
Ġj e
erv ice
ual ly
e ich
Ġin tegr
is ierung
ĠHerr n
erg y
il it
if ied
fol g
at her
Ġfinan cial
Ġc ity
ĠG en
im es
Ġre as
Ġim ple
Ġch ange
ĠD em
ah n
Ġre pr
Ġpos it
ĠM an
Ġd uring
gr und
Ġ[ [
all en
ĠSt adt
ich ten
Ġre v
ĠAus sch
ut es
Ġc itiz
Ġi hren
Ã¼ h
an den
Ġzur Ã¼ck
Ġact iv
Ã¼n d
Ġf ar
le x
Ġpro m
Ġpro blem
Ġinv est
Ġd ay
o ve
uch t
ĠIntern et
Ġf ol
Ġsa id
Ġde ut
Ġalle m
Ġ ."
c ing
in en
Ġn un
ich ter
am m
Ġg lobal
Ġl arge
uch en
Ġa chie
Ġme ans
Ġst at
Ġiss ue
Ã¤ m
ĠP ol
ĠJ ahre
Ġpropos al
Ġs af
) ."
a um
bs ite
Ġk l
Ġexam ple
ie le
R e
s o
il y
t t
Ġas k
sche id
loss en
Ġm eine
re ib
ĠR uss
is l
Ġqu ality
n ov
Ġz usammen
w ays
Ġapp lic
Ġma jor
Ġco st
ĠA mer
bes ondere
Ġm ember
Ġ200 9
Ġmo dern
hal ts
Ġf amil
heit en
Ġge f
Ġent sp
Ġme et
ill ion
p unkt
Ġs ince
ud get
Ġb esch
Ġpr esent
gr ess
Ġs ituation
Ġstr ateg
ĠT ran
Ġdeb ate
Ġbes onder
Ġroom s
i end
Ġne cess
un ter
it es
Ġ 0
et her
B ut
Ġwo llen
iz ed
Ġver fÃ¼
Ġsich er
Ġuns eren
am er
aup t
fÃ¼hr t
ĠCommission er
ant wort
u le
as h
p re
or g
o ten
a at
Ã ¡
Ġtechn olog
Ġein ge
il ities
le ist
f ts
Ġch ild
te llen
ktion en
Ġam end
Ġcomm on
ble ms
ĠwÃ¼r de
eschÃ¤ ft
Ġen g
an gen
? "
Ġe ach
h af
Ġad op
ĠZ immer
kun ft
D es
P ro
Ġch e
etz en
Ġinclud ing
Ġp ass
lich t
ir d
or en
ĠKommiss ar
ĠP al
f ass
ĠÃ ĸ
Ġg ar
om at
o de
Ġcomp et
Ġp ower
ĠComm ittee
ach e
o h
ĠK in
imm ung
re it
Ġcitiz ens
ĠParlament s
Ġc olle
Ġre f
c ip
ĠArbeit s
v ention
ĠEn erg
ĠGe w
Ġw Ã¤hrend
N ach
Ġste hen
ĠP olitik
p or
b ed
ĠG esch
gen ommen
Ġetw as
ie der
op p
Ġth ree
aur ant
ab lish
Ġst ay
Ġsa gen
) .
Ġfo und
Ġall ow
in ing
ge w
i pp
Ġare as
ĠEn g
Ġc ult
Ġob ject
Ġres pect
ort h
gan gen
Ġne xt
Ġmeas ures
ain s
e ll
Ġd och
ĠVorsch lag
ï ¿
ï¿ ½
Ġst ud
Ġso zial
ĠW ir
ĠB est
ĠFor m
ĠW or
Ġg ive
u ge
z w
Ġor ganis
ze pt
Ġfe w
and s
Ġ /
u gen
ord nung
How ever
Ġdem oc
Ġaut hor
Ġre ce
Ġb r
Ġens ure
lin ie
ĠB ild
Ġ3 0
Ġres ult
Ġdisc uss
Ġk omm
l ing
as ch
Ġ %
ra che
ug ht
Ġf urther
Ã¼r lich
Ġer m
Ġhist or
Ġprov ide
Ġen ergy
Ġpr es
Ġth ank
ĠE uro
schaf ten
Ġt un
Ġw issen
ĠP h
if f
Ġtak en
Ġins besondere
Ġsu ccess
Ġer st
Ġbu ild
f alls
Ġf il
un de
ĠB o
ĠU r
Ġagre ement
Ġm us
Ġc al
g leich
Ġer halten
Ġcont rol
ĠL Ã¤nder
ank en
stell ung
Ġk om
Ġad dition
stÃ¼tz ung
i ate
Ġd ra
w irt
s er
sch l
g re
Ġein mal
it or
ag t
ind et
Ġwar en
e k
ĠL Ã¶s
.. ."
z iel
Ġgro w
Ġemp loy
O ur
Ġ Ã¶ffent
Ġd et
l ungs
W ith
pe cial
Ġp ay
as es
ĠVer fÃ¼
Ġa uÃŁer
Ġpos ition
Ġest ablish
ĠF all
il fe
ck en
le gt
Ġre ad
itÃ¤ ten
1 9
t schaft
Ġab s
Ġk ommen
chn olog
g ang
uf f
dit ions
ig ten
Ġla w
ĠPro blem
Ġv o
o hn
Ġbe im
Ġcom e
ro ss
ul es
Ġl ink
ĠDe ut
Ġd u
Ġopp ort
ar te
Ġp op
je kt
ĠÃĦnder ungs
Ġin de
ar n
Ġs k
ĠK unden
m m
Ġer sten
Ġim p
Ġpro blems
Ġsh all
ĠMar kt
em ents
ar en
b o
um s
Ġver w
Ġnecess ary
ut en
Ġcomp any
ĠG o
igkeit en
Ġd id
ĠI tal
Ġ Ð
E ine
ro p
Ġsch w
ĠZusammen arbeit
ar ten
A T
Ġe l
Ġt err
ĠGro up
f re
utz en
Ġl assen
Ġprin cip
p olitik
A uf
un ic
ess er
p end
ĠA ll
Ġbe gr
ot t
Ġke y
um en
ĠUnter stÃ¼tzung
ĠQ ual
Ġd rei
A N
Ġg iven
is es
le men
Ġleg isl
Ġgro ÃŁ
Ġb udget
ĠS h
F Ã¼r
f ung
ĠN amen
Ġse curity
Ġpra ct
Ġ Ã¤
b au
el f
ĠG er
Ġge ben
Ġinv ol
f ang
m ed
Ġe m
Ġ |
esell schaft
Ġhe alth
icht s
Ġwir k
g lichen
Ġh ope
Ã¶r der
Ġ Â
ct ive
T o
I N
is ing
Ġwh y
Ġhow ever
l ungen
Ġle ad
Ġent wick
H e
ĠR es
Ġse cond
or gen
Ġch ar
ass e
ĠZ ug
b urg
be wer
j oy
Ġver l
ĠSch w
iet y
it er
ĠPro ble
iv ely
is ation
ĠM us
Ġwh ile
ĠUm welt
w ards
Ġ2 5
f te
are d
Ġco operation
ur z
Ġbeste ht
Ġre t
ge ther
ĠB l
ne ll
ĠSp iel
Ġwir tschaft
a ve
Ġb l
E S
ĠRe cht
ĠM ill
sp ro
Ġ ir
fÃ¼hr ung
ĠSt ra
ĠCh ina
Ġloc ated
S ch
v on
Ġand er
Ġw ish
Ġst art
Ġg ra
ar ch
Ġl ife
Ġprote ction
ĠR o
Ġimple ment
sch ied
Ġtra dition
ĠD ienst
ur y
Ġre fer
Ġal ways
alt ung
ĠL Ã¤ndern
Ġ1 4
ĠfÃ¼ hren
Ġneed s
Ġcomple te
wend ung
E n
te xt
Ġste ht
Ġw rit
Ġse hen
Ġsein en
er b
Ġ X
zie h
rie d
? ","
ear ch
Ġv ote
Ġin form
ĠM ein
al d
k on
le ct
ĠG eschÃ¤
! "
i que
o gen
ĠT ag
Ġst att
Ġcom b
Ġbe h
h Ã¤ng
pp e
Ġs ens
ĠDe b
Ġ1 1
Ã¶ t
Ġdif f
Ġa kt
ce ll
W ie
t ion
Ġw Ã¤re
Ġbet ter
k re
ĠI ch
Ã¤t ze
ste llen
ĠS ystem
c a
ĠFra gen
b y
Ġm ult
iv il
dr ess
ĠV ol
ĠUn ited
ett bewer
ichter st
Ġd abei
Ġt re
z ess
Ġ1 6
Ã¤ d
Ġa ction
ĠB eit
al le
sch ein
Ġinter est
g aben
ch es
A t
ĠH ouse
Ġacc ount
S e
ĠKolle gen
ial og
Ġg laub
ĠA t
i ation
Ġge hÃ¶r
z Ã¼
Ġn et
ĠT r
Ġm en
Ġh Ã¶
ĠR est
Ġn or
ĠLe bens
Ġleg al
ber eich
Ã¤ mp
Ġf iel
Ġus ing
Ġletz ten
uf t
is te
ch er
Ġf av
re chte
Ġwor den
se qu
Ġch o
ĠReg ierung
Ġm uÃŁ
l ess
ent en
ik an
ĠR ed
Ġde fin
i od
ier ungs
ĠP ort
ĠD es
ob il
r Ã¤n
Ġb le
Ġm ov
ĠS w
ĠEnerg ie
und heit
sch rif
Ġcons um
ge hen
Ġs ing
o f
ĠA d
cl us
ing ungen
Ġre ach
ĠBed eut
ĠComm unity
Ġ20 10
Ġ200 8
Ġ1 7
Ġbas ed
Ġa round
ĠK r
Ġcon ne
Ġtransp ort
Ã¶l k
Ġgro ÃŁen
F ra
ig es
g abe
ab il
Ġder en
ĠVerfÃ¼ gung
ges tellt
Ġgro ÃŁe
ĠS pe
Ġwel che
mar kt
Ġter ms
Ġwork ing
gen den
Ġcurr ent
3 0
if y
Ġad d
Ġ5 0
Ġm et
ĠBedeut ung
ĠEnt scheid
ĠUS A
erv or
Ġin ner
ge d
ass er
Ġst ru
ĠS eite
Ġprodu ction
Ġsh ort
Ġbec ome
le v
b lick
ĠK om
Ġwh ether
ra cht
um ents
ĠQ u
pp orte
Ġl ess
off e
Ġparticular ly
ĠEr geb
Ġn on
Ġc rit
ĠB el
Ġcent re
ho f
Ġl im
Ġindivid ual
Ġex tre
ĠD as
ed er
Ġto gether
Ġde f
Ġdiff icult
Ġbe l
Ġh o
ĠReg ion
Ġvis it
Ġan other
lo ad
ĠR om
Ġne ar
! ","
Ã¼n st
fer enz
Ġor ig
Ġst ate
ut er
Ġd ist
Ġres earch
Ġtra de
d ruck
Ġw ater
Ġz ahl
os ition
Ġcl os
ig ent
Ġre p
Ġh im
ĠSch utz
ustr ie
an ies
Ġc are
Ġe ar
im men
k auf
Ġchild ren
Ġb ene
ĠF amil
pecial ly
ĠS k
Ġbe ach
ro om
Ġs l
Ġnot wend
ben e
Ġcon trib
ĠC l
Ġwho le
as tr
Ġex ist
tell ung
Ð ¾
Ġiss ues
ĠVer trag
Ġto ur
ot s
Ġjed er
n ers
Ġbie ten
t y
Ġh ervor
Ġloc al
ak es
ĠRe gel
5 0
trÃ¤ ge
i ar
Ġcon ditions
Ġda von
entr um
ar ante
O N
c kt
le it
ĠThem a
Ġspec ific
Ġr icht
Ġ1 00
Ġreas on
am es
Ġdar Ã¼ber
Ġfr iend
at te
Ġent fern
Ã¼ t
ie w
Ġer forder
ĠL a
Ġen joy
ĠB esch
Ġk m
b t
ult ur
Ġc all
ort s
h ang
Ġe ben
ord ing
v est
Ġsub ject
Ġa ff
Ġsh ow
Ġste llen
Ġbe w
Ġgegen Ã¼ber
ĠWirt schafts
h Ã¶
Ġb ook
rie den
Ġan n
ad ies
k ungen
x im
Be i
Ġad dress
Ġd aher
od y
Ġs ystems
Ġall es
Ġro le
ĠKin der
ik a
Ġ200 7
ĠU N
t on
Ġt ax
Ġvar ious
ik el
our s
enn t
Ġsch nell
ĠWe ise
Wh at
uf en
ateg or
Ġb rauch
Ġra pporte
eng th
Ġeigen en
ro w
Ġr un
ĠProble me
W hen
Ġexper ience
f Ã¤h
Ġw omen
ĠM al
ĠS ervice
Ġges am
ail s
Ġ2 4
ĠT ur
wirt schaft
gem ein
Ġp age
Ġor gan
Ġcomp anies
Un d
ĠBe ispiel
Ġsow ohl
Ġindustr y
Ġste p
isch es
ĠBer ichterst
Ġse ctor
Ġo ld
is ions
s k
Ã ³
Ġ ur
Ġpolit ischen
Ã Ń
Ġbas is
sch utz
ĠG Ã¤
Ġgu arante
ĠHaus halts
Ġa im
Ġn Ã¤ch
Ġbef indet
Ġweit ere
ĠIntern ational
s en
ro ll
as ter
Ġbene f
N e
ro du
ese hen
ĠW ahl
ĠWe g
ĠMr s
ĠkÃ¶nn te
The y
Ġo cc
Ġp at
ĠFra uen
one y
Ġd ort
iti ative
Ġer reichen
ne ten
th ing
Ġbe aut
Ġcom fort
Ġprof ession
"" ,
Ġp ack
Ġhat te
Ġmein er
Ġre ally
ĠIhr er
ir m
ĠEU R
ĠA ir
A us
ch an
Ġd i
Ġde al
Ġm atter
Ġwirk lich
Ġnat Ã¼rlich
ĠB us
A R
Ġcomm it
ĠS an
ge ord
lo ck
in o
Ġse ver
a i
reat y
ĠG u
ĠGerm an
Ġar beit
W as
Ġc ol
Ġt yp
Ġth ird
Ġbesonder s
Ġin nov
rit te
in ter
ab ly
Ġpr ior
ĠZ ahl
gen de
Ġb ar
ĠF ahr
ĠF ol
Ġes pecially
b ild
Ġmon th
Ġbre ak
ĠB en
ĠZu kunft
iv ed
ĠAussch uss
o ber
Ġi hnen
Ġmember s
Ġgovern ment
an ces
Ġper iod
Ġd one
am t
Ġst aff
Ġcl ose
Ġg ent
Ġverschieden en
Ġd oc
ĠSt aaten
ĠunterstÃ¼tz en
) .","
ĠL in
ĠGeschÃ¤ fts
cell ent
Ġpro ced
e an
t il
ĠSt ud
if iz
iz ation
re g
ĠEn de
ĠK l
Ġm ot
ĠD er
u ktur
Ġs he
et y
fin den
Ġentfern t
Ġfo od
Ã¼n ft
og raph
d ings
id es
Ġh och
z uf
ĠF un
tre ten
Ġinner halb
iv al
Ġ1 3
Ġto p
eth ing
ĠM ark
wer k
I T
ic an
sp l
ĠH aupt
ĠFor sch
Ġneg ot
Ġperson al
Ġcre ate
Ġfe at
ĠS eiten
Ġviel en
Ġte il
ĠProdu kt
a pp
Ġt urn
Ġpriv ate
ĠF ort
k ung
Th ese
ne h
Ġloc ation
ra um
ĠS ituation
Ġs ite
Ġper form
Ġin stit
ĠR olle
Ġrepr esent
as ing
Ġp le
Ġappro ach
du c
ic ient
Ġpr ess
Ġs um
en ces
ich tet
Ġgen er
Ġbe tr
Ġent er
Ġzw ar
Ġpro p
er ien
sche iden
e c
Ġso c
ind ung
Ġre form
we isen
Ġev ent
om ent
ens ion
Ġw elt
Ġinternational en
u c
f ast
Ġam ong
ĠDeut sch
ĠPro gramm
Ġj ob
Ġsing le
Ġp oin
ĠW ettbewer
im ate
Ġits elf
Ġdec ision
z ip
ord in
Ġl o
Ã¼ d
Ġsom ething
ul ts
i ol
w h
Ġst ar
Ġbest imm
Ġlang u
1 1
Ġsever al
ĠmÃ¶ chten
Ã¼ hr
ol f
land s
Ġstru ct
o or
kt or
at iven
Ġdo ub
Ġgen eral
if t
ĠPar k
Ġres our
e ign
Ġl ist
Ġfav our
ut h
Ġm aterial
ue llen
Ġinst all
ĠF est
itt le
min istr
ian s
U m
ond s
is is
ĠRicht linie
tem ber
Ġto wn
Ġ ...
Ġauf ge
at ch
Ġdire kt
Ã¤n de
Ġm aking
Ġhin aus
Ġcontin ue
' t
Ġd Ã¼r
Ġpro gramme
m os
I S
ra el
me work
An d
Ġres olution
ĠW och
ĠVerb rauch
w Ã¤r
ĠD isk
Ġle ast
Ġen c
ĠI hren
ific ation
ĠT err
ĠG ru
an e
ĠA fr
Ġaut omat
Ġac cept
Ġgent lemen
Ġfollow ing
y l
Ġint rodu
c el
V er
sp rache
Ġm illion
g o
i ations
w Ã¤
ĠN utz
A uch
Ġpro gress
Al s
ĠE l
Ġser ious
Ġa way
ĠSo ftware
Ġpe ace
ĠStr ateg
D a
Ġrel ations
ĠT our
Ġgo ing
ĠL ie
Ġex cellent
Ġk ind
Ġof ten
Ġle t
ĠK Ã¼
A ber
neh mer
Ġop in
ĠC omp
Ġg l
Ġh ome
Ġte xt
h ens
be i
Ġman agement
at ives
if en
r im
Ġ :
C H
m iss
Ġs up
ĠGerm any
Ġers te
Ġn ame
Ġunder stand
Ġfamil y
Ġkon n
Ġm ar
Ġpartic ip
ĠAb st
Ġt ro
Ġof fen
Ġr ules
Ġdirect ive
ier e
au er
ĠN ot
le t
ĠeuropÃ¤ ische
Ġan s
ĠW er
ap s
gr icult
fe hl
Ġcr isis
str ument
ik en
Ġa part
Ġ ..
Ð µ
ĠGe gen
or m
Ġrapporte ur
ĠR Ã¼ck
ant rag
Ġcont act
und s
ot o
Ġreg ul
Ġan al
pro du
ĠE s
ĠHotel s
Ġ200 0
ic le
Ġs ett
ier ungen
ĠU hr
ĠC hr
ks am
th ough
y pe
1 2
ĠMein ung
f ect
ic ial
we g
Ġm ach
Ġfe el
Ġm oney
Ġfor ward
H ier
Ġto wards
Ġso ftware
Ġex press
Ġon ce
t he
Ġst ark
leist ungen
Ġin c
ĠNe w
Ġpr ice
Ġeinz el
Ġr ange
Ġkl ar
th ers
Ġl ine
ull y
ach st
Ġwel come
Ġextre m
pe kt
on y
Ġon line
Ġf ast
Ġet c
ĠGes undheit
etz ung
Ġth ings
st Ã¼ck
Ġabs ol
Ġl ittle
ĠW ind
ĠK re
pr Ã¼
ĠBer lin
Ġrec og
Ġd est
z ogen
air s
teil ung
Ġb al
Ġinstit utions
ĠZusammen hang
v oll
Ð °
fer ence
Ġh Ã¤t
we is
Ġm ention
Ġcomm unic
ad am
Ġ ident
uÃŁ en
Ġp ost
Ġz us
itÃ¤ ts
Ġan t
if ft
Ġun til
D E
es ten
ĠO n
ĠAb geord
Ġs itu
w and
ist ic
Ġbei den
Ġm ilit
Ġunser em
A S
h aus
l ik
ĠF isch
A b
i j
out h
Ġkomm t
enz en
Ġst re
a den
ĠRe p
ĠWor ld
Ġd ays
ĠUn ivers
as st
ĠTran sp
Ġw alk
w w
Ġopt im
y r
Ġcustom ers
en nen
ĠD ire
g Ã¤n
ure d
b et
Ġfin anz
at ten
v ent
ies en
Ġa id
Ġstr ong
um e
ĠT reaty
O R
z immer
Ġ ess
Ġentsp rechen
Ġpl an
is on
ĠPart ner
ang es
lÃ¤ ge
ĠGÃ¤ ste
Ġincre ase
le an
tra ct
ĠH ilfe
ĠM et
ie ten
iden ce
ĠE mp
ĠFran k
Ġag ree
ĠEnt schlieÃŁ
omm end
Ġbeste hen
Ġopport unity
le icht
Ġ19 8
ĠPerson en
Ã¤ch st
fass ung
ĠJ an
Ġwelt weit
ĠK omm
Ġr ather
n a
e u
Ġke ep
ĠSp an
iden cy
re ch
Ġgrow th
Ġfun ction
Ġactiv ities
ĠZ we
ĠBerichterst atter
hal f
ĠIn vest
Ġm ind
oc us
ĠB ank
Ġh ard
lich es
Ġv e
cr ip
ĠVer antwort
Ġqu ite
st ra
ed om
ĠG ra
Ã¤ uf
we il
ĠO p
Ġste llt
iel en
Ġbring en
m Ã¤ÃŁ
Ġ200 6
ĠTe chnolog
ĠLÃ¶s ung
Ġb zw
ĠSchl uss
Ġche ck
m et
s ide
bar en
ĠN ov
Ġse em
Ġj a
lie ÃŁen
Ġ il
Ġposit ive
ĠU ms
ĠArt ikel
Ġprovid ed
ĠPrÃ¤sident in
ann ten
Ġst Ã¤r
ĠK lim
Ġbegr Ã¼
en der
ĠK o
Ġtr y
Ġresour ces
Ġele ct
an a
p ly
Ġb ig
Ġt as
ĠS u
ĠLe ben
ĠD ies
Ġs w
Ġpart ners
ĠfÃ¼ hr
Ã¤r en
Ġs ug
Ġwen iger
ue ll
Ġdar an
Ġme an
Ġde v
Ġt reat
ĠI t
Ġind em
Ġm ight
rol le
eit s
Ġbe half
Ġide al
forder ungen
ĠDem okrat
ere cht
ĠF il
in ed
Ġg ilt
Ġl and
Ġfull y
reich e
Ġp ort
Ġetw a
ĠN ational
Ġcl ass
ap an
ide o
Ã¼ck sicht
Ġgew Ã¤hr
Ġqu al
ĠMe hr
ĠOr ganis
ĠK ultur
Ã¤m lich
hn t
am b
L e
mos ph
Ġjed en
Ġges agt
fra ge
Ġincl ude
Ġf our
ab hÃ¤ng
Â ®
zeit ig
on a
ĠN atur
wo hl
Ġn Ã¤mlich
Ġl ab
ĠMin ister
ament al
Ġsign ific
if ul
ĠC ent
u h
legen heit
Ġy et
Ġum f
on ger
le tz
st adt
Ġb itte
Ã¤hl en
Ã¼ hren
